-9.710751400065383843e-01,-2.674652602972718185e+01,2.694986359679229082e+01,9.058633458047511411e+00
-1.836790149918696713e+00,-8.920601570674580927e+00,1.546395214237007742e+01,5.315329302005019407e+00
-3.141840615291532912e-01,4.582267722049384417e+01,1.817350928679497457e+01,6.818311611743189893e+00
-3.553187644879072238e-01,-3.010777106342560216e+01,1.794385225339848233e+01,4.362062386851221163e+00
-6.081672219792037204e+00,3.196273682524887150e+01,3.306329945210930532e+01,1.501799281082083759e+01
4.886573884208516461e+00,-1.653846154926785417e+01,-1.246426739942441686e-01,-5.504357839241087014e+00
1.083310443583807903e+01,2.279093999900150713e+00,-1.518067679941041082e+00,5.523158504350322850e+00
1.307700035401341943e+01,6.510442791196996204e+00,-1.785898940257141732e+01,5.568355963073294390e+00
6.250528158463858119e+00,-2.193592954894575620e+00,1.848554057478783763e+00,1.712635430453156582e+00
1.119616633183250443e+01,2.411028473775782111e+00,-8.636249074850910645e+00,4.622394042781896140e+00
8.725557810627575961e+00,7.641417298877656306e-01,-5.656451249047826479e+00,2.831250005024696925e+00
7.114741347333680688e-01,-2.589014086391645542e-01,1.044968059538898153e+01,2.223018324304087301e+00
7.225414938370271045e+00,1.905953549075982023e+00,-3.354464043243111426e+00,3.455678151922116914e+00
6.802292294299093101e+00,4.504255796964623526e-01,-3.326871741312221076e+00,2.489658414216828763e+00
4.410299048406496780e+00,7.094741369660951813e-01,2.761446002917052223e+00,2.771419503235050374e+00
5.646512031768475381e+00,9.296928393458282480e-01,-8.536070826180335025e-02,2.876130288675193825e+00
6.139014345267765016e+00,8.263972739036696824e-01,-1.026107455008428815e+00,2.861568792943058881e+00
6.049590222668605577e+00,8.846213771375549539e-01,4.008343763106108071e-01,3.123258217121109404e+00
5.893519233714788363e+00,8.882712255663700596e-01,2.125916026012894533e-01,3.001320944033859739e+00
5.865354656510860742e+00,8.435536067819205952e-01,-2.227250180802065604e-01,2.900559731292825738e+00
6.820398266081522110e+00,1.001643413209686750e+00,2.257308675514164281e-02,3.476302217645889758e+00
6.806999540024340156e+00,9.828059916527279727e-01,1.949189373723534541e-02,3.345847513575161081e+00
7.412670175659505034e+00,1.086298144864792592e+00,-3.495755715274693337e-02,3.747337683971112554e+00
7.887350156757590547e+00,1.225710438891888465e+00,1.521284212823357240e-01,4.284638251105733708e+00
5.204176681112254954e+00,5.410263215157123939e-01,-4.882233957947935687e-01,1.637808533125915789e+00
9.263692364966221504e+00,1.672144306579100403e+00,7.159991439584391104e-01,6.092264085682543850e+00
6.056218299466337385e+00,5.830610807169758214e-01,-7.512302230208066645e-01,1.631570413360658778e+00
7.899031021795211771e+00,1.272689165067903305e+00,3.702058042007198568e-01,4.577096322925325644e+00
5.872868517554888257e+00,6.395902941223655658e-01,-6.115613080153163850e-01,2.004737706044398049e+00
6.030390760949480899e+00,6.585530763619394934e-01,-3.630761478217688909e-01,2.230228080964087312e+00
4.173491620692325377e+00,2.078979335790879790e-01,-1.050956687851597016e+00,4.274129371758950136e-01
2.906845350389794636e+00,1.631237078718276168e-01,-1.328695004112634859e+00,1.139716993419361002e-01
2.050884125989186568e+00,1.787430789742215642e-01,-1.748081231353661336e+00,6.135806877868713038e-02
1.690720790400176199e+00,1.249496326505887128e-01,-2.074956197643815781e+00,-2.497969863739538388e-01
9.931010301430368559e-01,4.558339226936737598e-02,-2.413771394526188718e+00,-6.743776662405678302e-01
-1.603106746547811268e+00,3.981118254040186821e-01,-3.389454946647598721e+00,4.786995333920668894e-01
-6.333444740760096892e-01,3.635379878575522028e-01,-2.828075193103814833e+00,5.224818653420917336e-01
-1.063323335754565058e+00,4.316601553440400085e-01,-3.257489092398249131e+00,6.177081051846181614e-01
-2.786780182409807960e+00,8.068022678533171010e-01,-4.246641590292868251e+00,1.665523340803240826e+00
-1.111348923759455376e+00,4.135248070019003630e-01,-3.612115117016487797e+00,6.211490349648088882e-01
-1.687150482739009361e+00,6.308114600368079916e-01,-3.860236560235892789e+00,1.014364079421510079e+00
-2.097312708152196059e+00,6.646899528351190023e-01,-4.433952597131733953e+00,1.231136596268108674e+00
-1.809864138118224997e+00,6.365926633458396378e-01,-4.264868320671419966e+00,1.060482541313717109e+00
-1.674757717284587555e+00,5.681965462774116737e-01,-3.723586014706844249e+00,9.889087107338682126e-01
-2.039810933895571665e+00,6.968123441395785989e-01,-4.645482512756183624e+00,1.209249805239731357e+00
-2.004564296847965998e+00,6.880762197589898044e-01,-4.474581540174611405e+00,1.171315835331621757e+00
-1.989919728253056075e+00,6.586595266550331340e-01,-4.434924780013033363e+00,1.160978474681203743e+00
-1.880517337058335237e+00,6.901473704226038786e-01,-4.703961226681409258e+00,1.174385025669175020e+00
-1.768280124759423977e+00,5.748068669623361826e-01,-3.318374448339042271e+00,9.582437255688587285e-01
-1.818709433695284039e+00,5.339469927688202944e-01,-3.894126723888726715e+00,1.014173477520857514e+00
-1.141415569940138042e+00,6.657103814372876682e-01,-5.405485114207516872e+00,1.081192222223459565e+00
-2.460587829255739045e+00,6.357992090748523228e-01,-1.828329319788055907e+00,9.807812225437291254e-01
-2.366990053042338893e+00,1.847577374259329885e-01,-1.666612945668561219e+00,7.401392421903338903e-01
2.160625567571021755e+00,8.408506423665276230e-01,-1.098789345464583889e+01,1.017186833695805204e+00
-5.457713314426207774e+00,5.338209294949770589e-01,4.674970603759024179e+00,1.028836975044840729e+00
-2.992150228201487572e+00,5.696771401150025893e-01,1.353337757825992180e-02,6.819416304340014667e-01
3.556274706568936850e+00,-4.887389826288237038e-01,-1.224629342898630924e+01,2.893094271411254526e-01
-9.632670639895567488e-01,4.377170245576011420e-01,-5.459360881230767681e+00,1.383467374966757202e+00
1.361967362413522897e+00,5.318578898819288803e+00,-1.144395320502618496e+01,2.472732292343760019e+00
5.302468837472656737e+00,3.544796835990275508e+00,-1.664992417782931966e+01,2.261331823777193328e+00
2.556834287708241948e+00,-4.521788000771657323e+00,-1.347293074127735579e+01,2.534152715114618371e+00
1.957101354889207112e+00,1.493854159898083189e+01,-1.226248779288219204e+01,2.041331625227569724e+00
3.865633057441967502e+00,-4.540090836411807551e+00,-1.432263749222949301e+01,3.183952654486331468e+00
3.729040637750665965e+00,1.263243553852738232e+00,-2.101090397092126238e+01,1.975409028292846703e+00
2.218852499441867909e+00,-1.657056430785712564e+01,-6.940755759219295662e+00,3.601422541000493194e+00
4.267931998548917250e+00,-2.303666273218533345e+00,-2.174086553382160858e+01,2.308060240356460291e+00
4.917216459842504328e+00,-8.734801514991282545e+00,-2.783566916164142668e+01,1.541383614503209376e+00
3.011180611130829243e-01,-6.554622909271913933e+00,6.634914660733059577e+00,4.455836246465657347e+00
-1.040648708694005831e-02,-6.441705131885542279e+00,1.035701157979075404e+01,5.414879652998749293e+00
-4.558497076331442521e+00,-7.313933901921789271e+00,4.553579339601661502e+01,9.139109642807147438e+00
2.077554110008223098e+00,-6.332424018707833113e+00,-6.883872460617348921e+00,3.159430951338081162e+00
-1.944404246378504952e+00,-6.182085676872207891e+00,2.377891128705793022e+01,6.185209595865376109e+00
-1.028585622350911111e+00,-5.461330021985816963e+00,1.575216520407590792e+01,4.970921845839206377e+00
-3.571268002609702674e-01,-4.852999651276746818e+00,1.080069828068147508e+01,4.526077923965281080e+00
-8.629886377786217810e-01,-5.982441689363039217e+00,1.475842343792747435e+01,4.919010073133337713e+00
-9.451690059641555397e-01,-6.892685824604591893e+00,1.500408365741818884e+01,4.872374857595461073e+00
-8.915552651450509014e-01,-3.443763607025733364e+00,1.565611351171600241e+01,5.457329268219951679e+00
-7.249462809069333602e-01,-3.870970510508459306e+00,1.380273961066629695e+01,4.744849791132275563e+00
-6.220692202362405610e-01,-1.633787790368136683e+01,1.142524555476447468e+01,3.812462993533042521e+00
-1.676936142902902827e+00,4.987251343380611601e+00,2.650523807415083510e+01,9.108889807835740982e+00
